WIDTH=80;
DEPTH=784;
ADDRESS_RADIX=UNS;
DATA_RADIX=HEX;
CONTENT BEGIN
0: 00000000000000000000;
1: 00000000000000000000;
2: 00000000000000000000;
3: 00000000000000000000;
4: 00000000000000000000;
5: 00000000000000000000;
6: 00000000000000000000;
7: 00000000000000000000;
8: 00000000000000000000;
9: 00000000000000000000;
10: 00000000000000000000;
11: 00000000000000000000;
12: 00000000000000000000;
13: 00000000000001000000;
14: 00000000000000000000;
15: 00000000000000000000;
16: 00000000000000000000;
17: 00000000000000000000;
18: 00000000000000000000;
19: 00000000000000000000;
20: 00000000000000000000;
21: 00000000000000000000;
22: 00000000000000000000;
23: 00000000000000000000;
24: 00000000000000000000;
25: 00000000000000000000;
26: 00000000000000000000;
27: 00000000000000000000;
28: 00000000000000000000;
29: 00000000000000000000;
30: 00000000000000000000;
31: 00000000000000000000;
32: 00000000000000000000;
33: 00000000000000000000;
34: 00000000000000000000;
35: 00000000FD0003000000;
36: 00000000FE0002000000;
37: 00000000FF0001000000;
38: 00000000FE0002000000;
39: 0100FF00FE0003000000;
40: 0100FF00FB0007000000;
41: 0000FF00FD0005000000;
42: 00000100FE0002000000;
43: 00010000FE0002000000;
44: 01000300FC00010000FF;
45: 00000000FF0002000000;
46: 0000FF00FF0002000000;
47: 0000FF00FF0002000000;
48: 00000000FF0002000000;
49: 00000000FF0002000000;
50: 00000000FE0002000000;
51: 00000000000000000000;
52: 00000000000000000000;
53: 00000000000000000000;
54: 00000000000000000000;
55: 00000000000000000000;
56: 00000000000000000000;
57: 00000000000000000000;
58: 00000000000000000000;
59: 00000000000000000000;
60: 00000000000000000000;
61: 00000000000000000000;
62: FF000000FF0002000000;
63: FF000000FB0006000000;
64: 00FF0000FB0006000000;
65: FFFE03FFFB0007000000;
66: FFFF00FFF6001000FFFF;
67: FFFE0400F8FE0DFFFEFF;
68: FE000000F3FE16FFFEFE;
69: FD050300F5FC0F00FDFE;
70: FB020500F7FC12FFFDFE;
71: FA0706FDF8FD0EFFFCFE;
72: FA020700F5FF0F00FCFE;
73: FC0100FFFA020B00FDFF;
74: FEFFFDFFFB020D00FFFF;
75: FE01FBFFFE000B00FEFF;
76: FFFFFE00FFFC0A00FF00;
77: FF00FF00FFFE0600FF00;
78: 0000FF00FEFF0600FF00;
79: 0000FF00FFFF02000000;
80: 0000010000FF00000000;
81: 000001000000FF000000;
82: 00000000000000000000;
83: 00000000000000000000;
84: 00000000000000000000;
85: 00000000000000000000;
86: 00000000000000000000;
87: 00000000000000000000;
88: 00000000000000000000;
89: FF00000300FF00000000;
90: FD000001FD0004000000;
91: FDFF0203FAFF0700FF00;
92: FFFE0207F7FE08FEFE00;
93: FDFC0FFFF2FE0DFEFEFF;
94: FBFA1106F2FD0DFDFCFE;
95: 03F71311EEF70DFBF8FD;
96: 00F71514E7FA0CFDF7FB;
97: FFFD160DE5FC0FFCF4F9;
98: 02F91015EEFD09FCF2F8;
99: FDFE0A11EC0112FCF0F6;
100: FC020B0DEF010CFDF3F8;
101: F8F8070BF40612FEF3FB;
102: F7F8FF0CF40910FFF8FE;
103: F5FBF70BFF0B12FFF2FE;
104: F7F9F50AFE0C0FFFF9FE;
105: F9FDF8FB000A11FFFDFF;
106: FCFDFAFB00030F000100;
107: FFFEFCFE00FC0C000200;
108: FFFEFF00FFFD09000000;
109: 000001000002FD000000;
110: 00000000000000000000;
111: 00000000000000000000;
112: 00000000000000000000;
113: 00000000000000000000;
114: 00000000000000000000;
115: 00000000000000000000;
116: 0000FF01010001000000;
117: FD01000901FBFFFFFE00;
118: FB01070AFEF700FFFE00;
119: FCFD050DFEFA03FEFDFF;
120: FFFC0A11F9F706FDF9FE;
121: 00F8170EF3FA02F9FCFA;
122: FFF71A15EBF804F6FDF7;
123: 01F81418ED03FEF2FBF2;
124: F9F91B15EBF9FDF506F1;
125: FC101210EFF3FEF103EF;
126: FC071111E801FEEE08E9;
127: 05FF0F0CEB05FDF00AE7;
128: FB010A0EF50802F106E4;
129: 01010702F30C0EF6FCEC;
130: F9FC050AF50C0AF8FBF2;
131: FA06F80300020FFA01F4;
132: FA0AFCFD08FC0EFCFEF7;
133: FD03EDF40A1011FDF9F8;
134: FB00F1FA0E0913FDF5FC;
135: F900F3F808100FFFF6FE;
136: F8FAFAFE0812FFFFFEFF;
137: FFFE00000004FE000100;
138: 000000000000FF000000;
139: 00000000000000000000;
140: 00000000000000000000;
141: 00000000000000000000;
142: 00000000000000000000;
143: 0000000300FFFF000000;
144: FF00010600FB0000FF00;
145: FB04FF1002F4FB04FDFF;
146: FC00031300F60104F5FD;
147: FBFC0C1301F4FC00FEF8;
148: 00F3120BFDF60204FCF6;
149: FCF10D12FFFFFFFEFDF0;
150: 04F5120DF40503F8F8EE;
151: 02F3150AF505F0F202FD;
152: 01FF130BF2FEF3EE06FB;
153: 07030F08EDFBF6EA0B00;
154: 08031205F8FBFFE809F3;
155: 0F050D0BF600F6E50BEE;
156: 0BFA110B0001FCEA0BE2;
157: 0FF41101000900E80AE5;
158: 0BFF0CFF04080AEB00E5;
159: 0005FF020B030DEA05EA;
160: 0108FEFB060C0BEC02E9;
161: 0110FCF0010D0BF300EF;
162: FD0CFDF60B0C09F8F9EF;
163: F304F4F315150AFCF8F7;
164: F6FFF8FA061108FFFEFC;
165: FCFCFEFFFF0EFFFF02FF;
166: FF00FF00FF0301000000;
167: 00000000000000000000;
168: 00000000000000000000;
169: 00000000000000000000;
170: 0000FF01000000000000;
171: 00000006FFFCFE02FEFF;
172: FEFF010A01F90004FCFD;
173: FCFF080B07F9FD03FBF7;
174: FBFA0C1206F8F80BF7F0;
175: FBF70E0803FD0005FBF4;
176: FCEF060FFFFBFD0C02F3;
177: F4EA130D0101F707FEF4;
178: 01F40810F701F10BFBFB;
179: FEF7050AEF03F00A0203;
180: 02F60707F008EFFE0405;
181: 09F80B0FE6FEF0F7030C;
182: 07F80C0CE601ECF30216;
183: 06EE050CE7FEF5FC0F0F;
184: 0BF30B0CE5FFF4F9050E;
185: 11EE0303F201F7FA080A;
186: 10FC060AED08F4F1FB09;
187: 08FAFEFFFC0AF9F509FE;
188: 0707F9FFFC09FBF707F8;
189: 0A0AF9FA010EFCFDFCF2;
190: 0B07F4F20F0FFDFA02EC;
191: FD03EEF4171502F805EC;
192: EDFBF7FA072FFDFA01F5;
193: F5FBFDFEFE19FCFE07FE;
194: FBFFFF00020AFEFFFFFF;
195: FF000000000100000000;
196: 00000000000000000000;
197: 00000001000000000000;
198: 000001FF00FF000200FF;
199: 00000104FFFCFE07FEFD;
200: FD00090F03F0FF01FFF7;
201: FDFB071408F2FE07FBEE;
202: FCF6130E05F3F60DFAF0;
203: FDF201080601FF1100EC;
204: F6E90B08FF07F90D05F0;
205: FAE60803F607F9140000;
206: FCF40404F507F61301FD;
207: 06F00301ED0BF515FD03;
208: 01F30209E104F70BFE13;
209: 06F40507EA00EF07FC16;
210: 05F40411DCFEF6FEF524;
211: 07EAFE0CDCFAF3040623;
212: 08EE0502E200E9080021;
213: 11EFF90BED03EC0DF916;
214: 0DF3FCFFEE03EE0E060D;
215: 0AFEFB08F807E7070102;
216: 0303FEFEFA08EE030504;
217: 05FFFD01010BF10205F6;
218: 0BFB02F30E10F2FD03F0;
219: 07FCEAED0F1FEFFF0EED;
220: F6EEF5F5042EFDFC0DF0;
221: F1F8FCFD0228FBFD00F9;
222: FC0000000108FF00FFFF;
223: 00000000000000000000;
224: 00000000000000000000;
225: 000000000000000200FF;
226: 000000FF01FF0004FFFD;
227: FF000202FFFCFF0DFEF7;
228: FCFE091303EAFE0DFFF1;
229: FCFB051008F0FA0F00EF;
230: F9F4080B03F6F31009F3;
231: F7F50806FFF9FC130BED;
232: FBEA06FFF905F90D0402;
233: 06E703000205F6090AF6;
234: 00E911FFF30AF31002FA;
235: 01ED0801F607F614FEFF;
236: 07F803FCED02F6180AF9;
237: 02FA0406EAFFEF0A050B;
238: 07010A0CD7F9EC0CF818;
239: 0F04070CDFF0EA14F80F;
240: 17F6FF0CE0F7E518FE0D;
241: 0BFEFD0EF0FBE51BFA01;
242: 0FFBF70AFCFDD9180401;
243: 0AFC0609F803E10C03FD;
244: 0BF3000CFB0CE50C03F6;
245: 05F5F906FB0AEC010C03;
246: 0CF2FC02FE0EE8080DF3;
247: 10ECFAE50228E90310EB;
248: FFEAEEEE003DF1F90DF6;
249: F2F8F9FB022DF7FD03F9;
250: FB00FF00FB0FFBFF04FF;
251: 00000000000100000000;
252: 00000000000000000000;
253: 000000000000000200FF;
254: 0000FF0000000007FFFC;
255: 00000304FBFBFE11FDF7;
256: FCFE0915FAEEFF11FDF0;
257: F9F70E0A01F1F50E07F5;
258: FAF40401FAFAF50A0B06;
259: FDF5FF03FCFE000807FC;
260: FBEFFEF8FA0FFA080BFF;
261: FDE802FBFB0BF7030F01;
262: 06EF05F1FA0CF4060904;
263: FFF703EBF916F40E0800;
264: FEF902EAFB0FF1120405;
265: 0C0200F9F303EC0DFE06;
266: 030F080ED7F6F318F306;
267: F91B0616DFEFE818E90B;
268: 0B090C05F3EDDE1BF303;
269: 0F00040BFCEDD81FF900;
270: 11F9070BFFF6D30E0203;
271: 0EEF020CFDFADB110702;
272: 08E9FE0FFF04E30A09FE;
273: 01ECF70A0210EE090AF8;
274: 07E7FC0DFC15E5060CF3;
275: 12E8F9F2FE28EDF711EE;
276: 08F3F0F0F143EFF905F3;
277: F2F9FAFDF537F3FE04F9;
278: FCFFFFFFFE0BFC0004FE;
279: 0000000000000001FF00;
280: 00000000000000000000;
281: 000000000000000200FF;
282: 010000FFFF00FF07FFFC;
283: FFFF030AFAFCFF0CFDF7;
284: 00FEFE07F8F7FD1109F4;
285: FFF80A03F8F7F50E0301;
286: FEF209FAF3FEF4060B0B;
287: FBF2F4F8FC0800051006;
288: FDF8F4E7020C00FE0F0E;
289: FEECF3DE0517FC041508;
290: FEF1F8DC050FFC050F11;
291: 04FAF1DA0418FF010E0A;
292: 05FBF1E10616F8060808;
293: 050DE8FEF00DFE0D02F8;
294: 0124F410D000F01BF5F9;
295: F229FA10EEF8E41EE9F7;
296: F712FF15FCF0DE25ECFC;
297: 0A04040F07EADA1EF200;
298: 10F7FF0DFAEAE31A0304;
299: 08F0FF0C05E7E51C0701;
300: 10EAFA11F9F4EB120503;
301: 07EBFC09F901EE1307FD;
302: 12EBFD00F601F30A0BFD;
303: 19EFF4F8E225F6F80CFA;
304: 0FF4F6F6E83EF3F7FDF2;
305: F2FCFEFFF63FF0FEF4F8;
306: FBFF0100FC12FB00FEFE;
307: 000000000000FF000100;
308: 00000000000000000000;
309: 00000000FFFF000500FD;
310: 00000000FCFF000DFFF9;
311: 00FFFF09FCF8FE0DFFFB;
312: FAFFFA05F5FF001501FC;
313: FAFAF7F9FC01000A0809;
314: FDF3EEEB0412F9060C0D;
315: 04F2E8E10408050C110A;
316: 01F4E7E0080F00FB1016;
317: F9EAE2DE110F04081211;
318: FBF0D5E6140F01090D13;
319: FCF0D6EF101201040912;
320: FAF1D0F6171D060109FC;
321: FE12D107E32102FF0EF3;
322: E62EDE0DD506EE0D10F8;
323: DD2AE50E00F6DD17FB03;
324: DE12F10616EFEE1FF60A;
325: F3F9F50C0AF0E91BF715;
326: FEF9FC09FFEEED18FB10;
327: 04F0060BFCE6F20D0012;
328: 0BEFFF08FAD9FA0E0319;
329: 10F5FBF7F8DFFD0D0A15;
330: 0EF601F9F4DDFC0F1707;
331: 18FAF9F4EDF90AFB16F7;
332: 0DFBF9F9F112FEF910F6;
333: FAFC0100F91EF2FE05FB;
334: FDFF0000FF08FA0006FF;
335: 00000000000000000000;
336: 00000000000000000000;
337: 00000000FF00000300FF;
338: 00000000FBFF000E00F9;
339: 0000FD01F7FEFE1801F7;
340: F900F5FAF404FD150209;
341: FDFDE8F2F804FF0E0817;
342: 06FCD5E60A1105010614;
343: FFF8CFE60F080B0D0D0E;
344: FEF3D8E31809080C060C;
345: 00F4D5F114070904050F;
346: FFEADBFD1E1602F7FB06;
347: 01E2D5F7221A0CF4FF05;
348: 02F2D80421190DDF09F3;
349: FB10D906F61705D31A02;
350: DD3FDC10E400EAEE090F;
351: D027E40D04F7E90A020D;
352: D30BEE091AE8F51BFB13;
353: F0FBEE060FE7F8160116;
354: FDFBF60303E7F713FE18;
355: FFF1050104E3F301091B;
356: 02F500F8FDDDF707131B;
357: 09FAFAEA08D408031216;
358: 17FAFAEA00C713001411;
359: 15FEF0F3F9D121FC1506;
360: 17FE01FBF9DD10FC15F5;
361: 01FF0901FE01F70005FB;
362: FFFF0600FE03F90201FE;
363: 00000000000000000000;
364: 00000000000000000000;
365: 00000000FF00000100FF;
366: 00000000FC00000A00FB;
367: 0000FAFFF700FF0F0200;
368: FB02EDFAFA06FA10FA15;
369: FFFED7F0090B0407FD18;
370: 0AFDCDED160710FDFC11;
371: 0CFACBE81A090805FB0F;
372: 06FCE4ED170506FBF90E;
373: 07EFE4F717070AF6FB09;
374: 0ADEEBF122120BF2F505;
375: 06D5F5FB26190BDA00FF;
376: FEF5F303122007C412F5;
377: E113F714FA10FEC71701;
378: D137F70CF8FCF7E1020E;
379: C724EE000BEAFEFC0E14;
380: D900EE0612E6FF100122;
381: EDFDF50617EAF60DF919;
382: F3F0F4030CF5F70CFE18;
383: FCF2FAFB06F9FD060113;
384: FDF5F8E410F400070718;
385: 08FAF7EB09E90F00FD14;
386: 10F9F8E905E818FE0206;
387: 1AFAF7F3FAD9240208F8;
388: 0FFB0AFBF7E5150304F3;
389: 05FD140001F9F8FF01F8;
390: 00FF0C0001FFF9FFFFFE;
391: 00000300FF00FF000000;
392: 00000000000000000000;
393: 00000000FF00000100FF;
394: 00000000FF00000300FE;
395: FE01FA01FD00FF07FF04;
396: FD00EFF90F05F702FB11;
397: 09FEE6F216FF0604F607;
398: 0AFDE8EE16FC0AFDF20E;
399: 10FAF6E6190008FBE809;
400: 0BF9F7F4180307F3EB06;
401: 0BF0FCF3180E0EEAEC02;
402: 03DBF9F3191611E8F902;
403: 04DB04F51B101AD30500;
404: FBFC0408110A0CC313F9;
405: E11D0805F707FAD21702;
406: CE310006FEFCFBEF06FD;
407: D21FF90409ED06F8090C;
408: D101F8F820EE0907FF18;
409: EFEBF20420EFF211FB16;
410: F5E5FA0314F2F817F711;
411: F7EBFCFC12F6FD1DF706;
412: FEF200F60CFE0214ED04;
413: 0CF7F80004F50A08F101;
414: 10FAF5EF03FB180CEDFA;
415: 14FC02F8FAF5160CEEEE;
416: 18FE09FCFBF50BFFF6F0;
417: 01FE15FFFCFAFCFF00FC;
418: 00000BFFFD00FB00FF00;
419: 00000000000000000000;
420: 00000000000000000000;
421: 0000FF01000000000000;
422: 0000FF010000000100FF;
423: FD0000000300FD03FE01;
424: 0500000607FCF100FA06;
425: 11FD00FE0AF500FCEF04;
426: 04F707F60FFB07FFE705;
427: 13F9FEED14F70CF6E907;
428: 11FAFEEA1AFF0AEAEF05;
429: 13EEFEEB13050EE7F903;
430: 10E006F3110A14E3FBFD;
431: 04EC01F7130A1BD70202;
432: F20402070D040FD411FB;
433: D5240A05F9F603E418F8;
434: CC32030206EE07ED0CF6;
435: CE0E000019EB04010709;
436: DCF700FA24EEFD02FE17;
437: EFDDFCFF20F1FA1AF50F;
438: FCE6F5FE0F02F620F308;
439: FDE9FD0711FC0116EEFD;
440: 07F0EF0AFFF80818F201;
441: 04F6F607FFFB0D18ECF7;
442: 0DF8F60906FB0312F1EE;
443: 18FAF809F9010C07F0E9;
444: 11FC18FFEBFD0903F1F0;
445: 01FF1AFEF7FC01FBFFFA;
446: FF000CFF01FFFAFFFFFE;
447: 00000100000000000000;
448: 00000000000000000000;
449: 00000000000000000000;
450: 0000FF0300FF000000FF;
451: FC000D05F900FB00FFFF;
452: 01FF0F0BF900F002F702;
453: 11FB100404F6FCF7E902;
454: 0BF311F40EF207FBF3FD;
455: 0DF309EF17E30FFBFBFF;
456: 11F0FDE51AE811F2010A;
457: 0EF207F50EEB13F200FF;
458: 10F00BED0AF11BE00205;
459: 05F50CF701F921DC0603;
460: E5FF17FC04FC03E816FD;
461: D121140405F3FFF20AF1;
462: D5290AF716EC09F4FFF6;
463: D80103F221F2080B0203;
464: E7ED05F620F4FA0AFB11;
465: FAD60AFF15FAF812F40A;
466: 02E1FF0A12FD0109EE03;
467: 02E9FA1105030815E6F7;
468: 09EFFD0E05FD070EE8F6;
469: 0FF60C0AFEFD070DE6E7;
470: 0AF50C0FF708FD03EDEF;
471: 0FF70911F70501FAF8E8;
472: 00FC1807F70506FBF2F1;
473: FBFE26FBFAFCFBFEF9FB;
474: FEFF12FFFCFEFA00FEFF;
475: FF00040000FFFE000000;
476: 00000000000000000000;
477: 00000000000000000000;
478: FF00020200FF000000FE;
479: FD000E10F6FEFBFEFEFB;
480: FEFE1316F800EF01F8F6;
481: 0EF31504F70AFAF9F3F6;
482: 11E80FFAFE0E00F9F3F5;
483: 09EC0AF909F30DED03FF;
484: 09EE09EE13E90CEC0808;
485: 11F809DC0AE614EE1500;
486: 11FB14DB02E91FE20904;
487: 00FD12E1F9EC1FED1007;
488: EB0918EC06DF09F518FD;
489: D11E14E910E6040408F8;
490: D71FFFE91DF00709FDFC;
491: EAFC08EF1CFBFD06F60C;
492: F7E701FE19FEF8020305;
493: FFDD010B0E050204F700;
494: 02E50308070B0A03EFF7;
495: 07EF0111FD0309FEF5F3;
496: 03F1030BFE060503F2F8;
497: 00F70211010301FFF5F6;
498: 0BF80C0FF60106F9F5ED;
499: 05FA0B14F20601FCFAEA;
500: 03FA1CF6F30AFE04FCF1;
501: FFFB2DF9F8FAFB00F4FC;
502: FF000C00FDFFFD00FEFF;
503: 00000000000000000000;
504: 00000000000000000000;
505: 00000000000000000000;
506: 0000FF03FF00000000FF;
507: FB000515F900FDFFFBFA;
508: 00FC1612FA08EFFDF3F6;
509: 08F31B0DF910ECF6F4F0;
510: 0CE40F09F81AF7ECF8F4;
511: 0BE412F602060BEA00F8;
512: 11F60AF000FC0CE908F9;
513: 11FA0AE4FCEE14EF0FFE;
514: 16F612DEF3ED18E51002;
515: 01FF10E0F6ED19F113FF;
516: EA0C16DE05F321F30BEF;
517: DA1015E40AF90A0503F7;
518: DE140AE815FE0106F701;
519: EFF702FF0FFE0501FC05;
520: FDEB0E0C0A0308F6F4FD;
521: 01F00D10F9060DF9F6F5;
522: FEFB060CF2FE11F8FCFD;
523: 01F50A10F20703F7FCF6;
524: FAFB080AFE0601F8FFF8;
525: 02FE0513FC0305F5F6F1;
526: 07F70B17ED0B01F3FEE7;
527: 04F91C07F10701F2FEEC;
528: FCFB2FF6F10AFDF5FAF4;
529: FEFF1FFCF7FD00FEF8FE;
530: FF010400FF00FE00FF00;
531: FF0003000000FE000000;
532: 00000000000000000000;
533: 00000000000000000000;
534: 0000FF0400FF0000FFFF;
535: FCFFFE1C00FFFDFDF8F9;
536: FAFB1511F70FF3FDF2F5;
537: 07EA0C15F913EBF201F3;
538: 0DF00D08F114F8E902F4;
539: 06F11401EF0F05E702F5;
540: 0EF50F01E91000EC06EF;
541: 0D010EFBE30A0EE909EB;
542: 17F90FEFE0FF1BEA0CED;
543: 0D0213E8EE0125EDFCEA;
544: 07020BEAEA0923FEFCE8;
545: F50C14ECFB080EFEF4F4;
546: F4040AF803000E0AF2F6;
547: F7FE0801010712FBF8F5;
548: FA03040CFD0514F1F8F4;
549: 00FC0C13F6FF0CEFFDF5;
550: FF010113F6070CEB02F1;
551: FAFF020FF00209F202FF;
552: 07FC0907F10707EB00FB;
553: 05FC0B14F50508E7FDEF;
554: 04F81809E90502EE06F0;
555: 01F71404EF06FBF10BFB;
556: 000113FAFA07FCFEFCF9;
557: FF0116FDFD01F9FFF9FE;
558: FF00070000FFFD00FEFF;
559: 00000100000000000000;
560: 00000000000000000000;
561: 01000000000000000000;
562: 0000000200FF000000FF;
563: FAFF0315FF01FEFDF8FC;
564: 00FD0D1CF9FFF6F7F6F9;
565: 0AEF1112F00FEEF3FCFA;
566: 0DFB0B11F00FEEED03EF;
567: 05FE190AE802FFE60DE9;
568: 0C04120ADA10FEEC03EA;
569: 0A051107E40F09E700E2;
570: 170510FCE20716EB05D9;
571: 14050FF6F10917F3F7DE;
572: 10010AF0EB041D00FCE4;
573: 08FF02F6EE011902FEF3;
574: 000202FFFAFF1C04F1F1;
575: FCFD030400FD15F8FEF4;
576: FA080307000311EDF8F7;
577: FA0D0210000507ECFBF3;
578: FD090C0AF8080DE0FEF3;
579: F9050A0FF50409EDFDF7;
580: FA020C10F90206E106F5;
581: 05FD1105F40AFDE20DED;
582: 01F912FCF418F7EB07F6;
583: FDFE14FCF40EFBF604F9;
584: FBFD1DFCFA06F9FFF5FF;
585: FE0109FFFD02FEFFFC02;
586: 0001020000000000FFFF;
587: 00000000000000000000;
588: 00000000000000000000;
589: 00000000000000000000;
590: FFFF0203000000FFFFFF;
591: FD00080DFD01FFFCF9FC;
592: FB050B11FA07F9F7F5FB;
593: 080A0810F700F1F1FDF8;
594: 05080B0DEB09EBEF05F9;
595: 07060B0FE609F7EA0AEC;
596: 020B0C0AEB0CFDF002EB;
597: 0A040FFAEE11FDEF05EF;
598: 0D060BFFEA070FF6FCEE;
599: 16FA0CF9F10612F701E5;
600: 0EF305F3F5091FFDFFEB;
601: 07FAFEFEF00422F803ED;
602: 04FFFFFBF50022F900F2;
603: 0403FE00000714F6FCEF;
604: FF060108F8030FF8FAF7;
605: F4070C06000711F0FAEF;
606: FE0C0D0DF90208E9FEF0;
607: F107140DFB0402E803F1;
608: F8050B03FF0BFEE606F7;
609: FC0111FFFF0FF9E202FE;
610: FCF712FAF913FEED08F9;
611: FDF91EF7FD0CFDF6F9FD;
612: FD0110FBFC03FFFDF903;
613: FF0007FFFD03FEFFFD01;
614: 00000000000000000000;
615: 00000000000000000000;
616: 00000000000000000000;
617: 00000000000000000000;
618: 00FF0104000000FEFFFF;
619: FE00050BFEFFFFFCFCFE;
620: F606070CFD09FEFAF5FD;
621: FA1C0609FBFBF701F4F6;
622: 07180E0AF6F7F0FAFAF4;
623: 04090A09F300EB010CEB;
624: 0B0611FEF208F3FCFEF5;
625: 0E050E08EF03F7F8FBF8;
626: 0DFE0500F508FDF604FB;
627: 0DF20606F709FEF107F9;
628: 0DE6FFFFF50E0CF70BF7;
629: 15E8F9FEF90D07F511F4;
630: 0800F7FAF60E06FB0AF5;
631: 0202FB02FA0605FA09F3;
632: 0606FD05F80B01F501F6;
633: FD1303070104FEF3FFF3;
634: F70D0D06FF0AFCED03F1;
635: FD05120B0C01F8EFFEEF;
636: F70314FF020BFCE700FD;
637: FBFC0EFB0C07FBE807FD;
638: 00F911FEFB08FAF5FD06;
639: 01FC0AFCFD04FBF80008;
640: FFFF08FCFC05FEFEFE04;
641: 000003FFFE03FFFFFF00;
642: 00000000000000000000;
643: 00000000000000000000;
644: 00000000000000000000;
645: 00000000000000000000;
646: 00000001000000FF0000;
647: 00FFFE09000000FBFF00;
648: FA01FE0EFE05FF01FAFB;
649: F80DFF10FC06FE06EDF9;
650: FC12FD14FDFCFA0DEAF6;
651: 000AFC10F7FFF311F4F7;
652: 04010709F702EFF80302;
653: 06FE0509FB08ECFF06F1;
654: 12F50107F80EE4FF02FC;
655: 11F70409FD0BEAFB06F4;
656: 17F9FF01F60CECF70FF9;
657: 10F5F900F90AEEF718F9;
658: 12F8F1FFFA0CF9FD10F7;
659: 0B07F6FFFC08FB040DEC;
660: 0408FBF9080AEEFC15ED;
661: 010DFB020402F4FC07F9;
662: F40008090D00F8F504FA;
663: F0010D030E01FBED0AFA;
664: F1FC0FFF0D07FDEA07FE;
665: FAF80EFA0BFEFDEE020E;
666: FCFC0DFAFC01FCF40010;
667: FEFC08FCFE04FEF70307;
668: FF0006FEFC05FFFDFD04;
669: 000003FF000200FFFFFF;
670: 00000000000000000000;
671: 00000000000000000000;
672: 00000000000000000000;
673: 00000000000000000000;
674: 00000001000000FF0000;
675: 00FEFC0700000001FE00;
676: FFFEFC0BFFFF0004F901;
677: FEFFF70DFEFFFF12F001;
678: FE02F115FC00FF10EA04;
679: F7F8EF1CFC03FC15ED04;
680: F9F7EE0DFF04F912FC06;
681: FCF6F50FFD0EF505FE01;
682: 03EFED11FF07F30B0104;
683: FEEBEB15FD12ED050AFD;
684: 05EDFB0AF810EC060EF8;
685: 05E8FC12F612E90F07F4;
686: 03F0FD0CF911EF040DF3;
687: F9F6FA05F811F1050CFD;
688: F8ECFB0BFF03F60512FE;
689: F6FB0205F90DF903FD06;
690: EFFF02F80303F7F8120A;
691: F203F9FC0400FBFA100B;
692: F5FFFEF904FFFCF80316;
693: F7FF04000000FDF6FE12;
694: FDFE00FE0106FEF7FC0E;
695: FF00FEFFFF06FFF8FF09;
696: 000004FFFF0200FDFFFF;
697: 00000400000000FEFFFF;
698: 00000000000000000000;
699: 00000000000000000000;
700: 00000000000000000000;
701: 00000000000000000000;
702: 00000000000000000000;
703: 00000000000100000000;
704: 00FFFE0000010006FC01;
705: 00FDFB05FDFF0007F60A;
706: FDFCFC0DFB000006F609;
707: F9F8F80CF600000EF810;
708: F8F8F11BEE01FF17F00B;
709: F0F3EF1BF007FE19EF0E;
710: EBEBF21DF709FE0FF90B;
711: EDEEF11BEE09FD18F60B;
712: EAF1F41EE612FD18F109;
713: EDEBF815ED0CFB14F80E;
714: EBF1FB11EE07FB15FD0C;
715: EEECFD05EA0CFB1A050A;
716: F3F1FD03E80CFC0D0512;
717: F2F7FC01E610FD0F0311;
718: F5FDF5FDEA08FE120015;
719: FAFEF402ED07FF03FE1C;
720: F9FFFAFEF304FFFCFF1C;
721: FB00FBFDF70700FFFD15;
722: FE00FCFFFC080000FE05;
723: FF00FE00FD0600FE0003;
724: 0000FF00FF0300000000;
725: 00000000000000000000;
726: 00000000000000000000;
727: 00000000000000000000;
728: 00000000000000000000;
729: 00000000000000000000;
730: 00000000000000000000;
731: 00000000000000000000;
732: 00000000FF0000FFFF03;
733: 00000000FFFF00FDFE07;
734: FF000002FDFF00FDFD08;
735: FE00FF03FBFD0002FE08;
736: FEFFFF01F7FC0006FD0C;
737: FBFFFF01F100000CFB0D;
738: FDFDFF00EFFF000DF913;
739: FDFEFEFEEB03000FF911;
740: FDFDFFFEEB060009F716;
741: FBF9FDFFE703FF16F717;
742: FAFCFEFCE4FEFF1AF61C;
743: FCFEFEFDE904001BF50C;
744: FDFDFD01EB010013F712;
745: FDFFFC00EA000017FA0C;
746: FEFEFD00EEFFFF0DFB12;
747: FF00FF00F2FF0006FC0F;
748: FE00FFFEFA020000FE0A;
749: FF00FF00FD0100FFFF07;
750: FF000000FE0100030000;
751: 00000000000000000000;
752: 00000000000000000000;
753: 00000000000000000000;
754: 00000000000000000000;
755: 00000000000000000000;
756: 00000000000000000000;
757: 00000000000000000000;
758: 00000000000000000000;
759: 00000000000000000000;
760: 00000000000000000000;
761: 00000000000000000000;
762: 00000000000000000000;
763: 00000000FF0000000001;
764: 00000000FF0000010001;
765: 00000000FF0000010000;
766: 00000000FE000003FF01;
767: 00000000FE0100000002;
768: 00000000FE000003FF00;
769: 00000000FF00000600FC;
770: 00000000FC000007FF00;
771: 00000000FE000006FFFE;
772: 000000FFFF00000500FD;
773: 00000000FF00000700FB;
774: 00FF0000FF000007FFFD;
775: 00000000FF00000200FF;
776: 00000000000000010000;
777: 00000000000000FF0001;
778: FF00FF00000000010001;
779: 00000000000000000000;
780: 00000000000000000000;
781: 00000000000000000000;
782: 00000000000000000000;
783: 00000000000000000000;
END;